TRT-7000-EntropyCalibration2
input_1: 3c010a14
conv1/convolution: 3d5eb561
conv1/BiasAdd: 3d5eb561
bn_conv1/batchnorm/mul_1: 3de57fa5
bn_conv1/batchnorm/add_1: 3d2206da
activation_1/Relu: 3d01e3a3
block_1a_conv_1/convolution: 3d784bf8
block_1a_conv_1/BiasAdd: 3d784bf8
block_1a_bn_1/batchnorm/mul_1: 3d573e7e
block_1a_bn_1/batchnorm/add_1: 3d724317
block_1a_relu_1/Relu: 3cd63670
block_1a_conv_2/convolution: 3cf72271
block_1a_conv_2/BiasAdd: 3cf72271
block_1a_bn_2/batchnorm/mul_1: 3d6e2b00
block_1a_bn_2/batchnorm/add_1: 3d6abb43
block_1a_conv_shortcut/convolution: 3cd90a6a
block_1a_conv_shortcut/BiasAdd: 3cd90a6a
block_1a_bn_shortcut/batchnorm/mul_1: 3d50c659
block_1a_bn_shortcut/batchnorm/add_1: 3d7b5150
add_1/add: 3de989ee
block_1a_relu/Relu: 3d3be76a
block_1b_conv_1/convolution: 3dba89b6
block_1b_conv_1/BiasAdd: 3dba89b6
block_1b_bn_1/batchnorm/mul_1: 3d4f9ae8
block_1b_bn_1/batchnorm/add_1: 3d42fc71
block_1b_relu_1/Relu: 3cc84abe
block_1b_conv_2/convolution: 3cc5c5da
block_1b_conv_2/BiasAdd: 3cc5c5da
block_1b_bn_2/batchnorm/mul_1: 3d6d13d9
block_1b_bn_2/batchnorm/add_1: 3d4b64e7
add_2/add: 3da0034b
block_1b_relu/Relu: 3da0034b
block_2a_conv_1/convolution: 3e210f89
block_2a_conv_1/BiasAdd: 3e210f89
block_2a_bn_1/batchnorm/mul_1: 3d8b4d30
block_2a_bn_1/batchnorm/add_1: 3d6710ab
block_2a_relu_1/Relu: 3cf13953
block_2a_conv_2/convolution: 3d27ebc8
block_2a_conv_2/BiasAdd: 3d27ebc8
block_2a_bn_2/batchnorm/mul_1: 3d6789e1
block_2a_bn_2/batchnorm/add_1: 3d4ec615
block_2a_conv_shortcut/convolution: 3ddb9ddd
block_2a_conv_shortcut/BiasAdd: 3ddb9ddd
block_2a_bn_shortcut/batchnorm/mul_1: 3d60665e
block_2a_bn_shortcut/batchnorm/add_1: 3d493fcd
add_3/add: 3e053639
block_2a_relu/Relu: 3d5ead8a
block_2b_conv_1/convolution: 3dd2a85d
block_2b_conv_1/BiasAdd: 3dd2a85d
block_2b_bn_1/batchnorm/mul_1: 3d2d7849
block_2b_bn_1/batchnorm/add_1: 3d19d916
block_2b_relu_1/Relu: 3d032631
block_2b_conv_2/convolution: 3cf24e1a
block_2b_conv_2/BiasAdd: 3cf24e1a
block_2b_bn_2/batchnorm/mul_1: 3d4fa50f
block_2b_bn_2/batchnorm/add_1: 3d2c6e5f
add_4/add: 3d9d8bec
block_2b_relu/Relu: 3d88e002
block_3a_conv_1/convolution: 3e012ef6
block_3a_conv_1/BiasAdd: 3e012ef6
block_3a_bn_1/batchnorm/mul_1: 3d35a104
block_3a_bn_1/batchnorm/add_1: 3d0f8df0
block_3a_relu_1/Relu: 3d058598
block_3a_conv_2/convolution: 3d21cbc7
block_3a_conv_2/BiasAdd: 3d21cbc7
block_3a_bn_2/batchnorm/mul_1: 3d7918d3
block_3a_bn_2/batchnorm/add_1: 3d3d640f
block_3a_conv_shortcut/convolution: 3d759c9a
block_3a_conv_shortcut/BiasAdd: 3d759c9a
block_3a_bn_shortcut/batchnorm/mul_1: 3d40f8ed
block_3a_bn_shortcut/batchnorm/add_1: 3d290538
add_5/add: 3d821bdc
block_3a_relu/Relu: 3d8e5b5d
block_3b_conv_1/convolution: 3da31c39
block_3b_conv_1/BiasAdd: 3da31c39
block_3b_bn_1/batchnorm/mul_1: 3d26c84b
block_3b_bn_1/batchnorm/add_1: 3d0f1fab
block_3b_relu_1/Relu: 3cc42e68
block_3b_conv_2/convolution: 3ca3bde2
block_3b_conv_2/BiasAdd: 3ca3bde2
block_3b_bn_2/batchnorm/mul_1: 3d651ff3
block_3b_bn_2/batchnorm/add_1: 3d32a9fb
add_6/add: 3daf8313
block_3b_relu/Relu: 3daf8313
block_4a_conv_1/convolution: 3e1b07a3
block_4a_conv_1/BiasAdd: 3e1b07a3
block_4a_bn_1/batchnorm/mul_1: 3d8db0cb
block_4a_bn_1/batchnorm/add_1: 3d4e82c1
block_4a_relu_1/Relu: 3d2ed85b
block_4a_conv_2/convolution: 3d1baca8
block_4a_conv_2/BiasAdd: 3d1baca8
block_4a_bn_2/batchnorm/mul_1: 3d6fb679
block_4a_bn_2/batchnorm/add_1: 3d78b09c
block_4a_conv_shortcut/convolution: 3d93f0ad
block_4a_conv_shortcut/BiasAdd: 3d93f0ad
block_4a_bn_shortcut/batchnorm/mul_1: 3d3627d4
block_4a_bn_shortcut/batchnorm/add_1: 3d21d21d
add_7/add: 3d9c4f0d
block_4a_relu/Relu: 3d8cacc3
block_4b_conv_1/convolution: 3e047bfa
block_4b_conv_1/BiasAdd: 3e047bfa
block_4b_bn_1/batchnorm/mul_1: 3d09d742
block_4b_bn_1/batchnorm/add_1: 3d0538cb
block_4b_relu_1/Relu: 3d026863
block_4b_conv_2/convolution: 3c38e29e
block_4b_conv_2/BiasAdd: 3c38e29e
block_4b_bn_2/batchnorm/mul_1: 3d9192c1
block_4b_bn_2/batchnorm/add_1: 3dc9552f
add_8/add: 3dcf8554
block_4b_relu/Relu: 3dd00763
output_bbox/convolution: 3d985c9f
output_bbox/BiasAdd: 3d963fc1
output_cov/convolution: 3e02819a
output_cov/BiasAdd: 3e02e995
output_cov/Sigmoid: 3aaf05cf
